3.9941481697751247 -0.816762015533105 1.157003976855902 0.6600707278742171 2.202930249734116 -0.7060021736673866 -1.651952385857978 0.1553534232880998 0.4789241174000474 4.0532461492567595 -0.2040465272584569 -1.1064821269487488 1.6779381918968472 2.199966493158849 0.24731935278216816 -0.8253079906368787 0.024751056546295093 -3.3366314286805547 0.04222203078494386 1.2131993983689122 -1.0026527354754735 2.4867114044392973 -0.48600284554029716 -1.4836748300526557 -0.19569580629161645 1.3831497974006957 1.829187807129133 0.557876971942632 -0.21225610285728855 0.01697346508212516 -0.6289412190338546 -0.9835686635742623 2.4752464272074652 -0.5897571893966185 -0.2632708166657475 
1.2053937353687163 2.198482912777227 -3.6079713545364167 1.4540509049467207 1.5870500645902328 0.3446323069115033 -4.095687057463776 -0.8685041142336594 0.9649069765760547 -0.5258654492312995 1.044019100406034 -0.9546412940012469 -1.3650898816677766 2.4122570127639533 0.9258627659065138 -0.5931446817266716 1.8655244142896086 0.40743610686084447 0.46250646734168477 -0.5800372009645691 1.7261996189351723 -0.591643039647869 0.41918064997355087 -5.551392575905996 3.1045388990010063 1.8315467268635348 1.6529638500292123 -3.144543702253331 0.0646005848421859 -1.6190154187003134 0.3692360389256444 2.001168860061661 2.0495192748005824 0.7487802230031673 1.692271967857637 
4.249540031357163 -0.6542471691768048 -2.681214350813991 -1.8007896465528983 -3.363508210027283 -1.0449759981437785 -4.8990182369431885 -1.3581557508551976 0.281684887730948 0.1617231169260592 1.4292527902760153 27.743680362837445 -0.5052464368467029 -0.6459346045953746 -0.18510301834200826 -1.3512329565766859 -2.2547096874133623 3.835207415199769 -0.712144205253569 1.0212669326534984 -1.4237461974041175 -1.9295758556697111 0.5524175362270265 -4.282162324150149 -1.2556655858967778 -0.22187391988310715 0.6263674534951017 0.845690333431491 0.9740361231524587 0.1332861679494244 0.00963128731398566 -0.6901870805041769 -2.5675947354811646 -0.02777884175950425 -0.47866610431844386 
-1.6461143310629698 0.8488633849046379 1.5023892960192529 2.539372407612481 2.132998971278112 2.273923950926817 1.4296072970121292 0.3533757440412672 0.07118828874510598 -1.5067968761631079 1.3517134958580304 2.7944160297009426 1.2268647336942973 0.03824349287935177 1.9936435955768357 4.182910513175338 1.749996914222765 2.128468668881008 -0.287713353210585 3.603366234590484 1.0276343091624365 -0.06608306606266562 -0.9400849423805722 2.7941543411769745 1.0489786566934547 0.05045345111838941 1.4507083477862956 -0.07446914928636997 -0.8357217089918068 -0.28935339524991116 0.1506094693691271 -2.8465070824710508 -3.097932040396963 1.1726437097380742 1.1943754057442213 
3.6204932719878338 0.43744923971103816 0.7775693276147098 1.514547570698984 -0.5124409273991886 1.6803312932832386 2.2490268370878064 1.1827380127103209 0.8703859357475898 -0.8778740170439232 0.4428534343236177 -0.013592948411392712 1.3701769609863568 -0.18841451468231663 0.37039861322739115 0.7787080703970738 1.2607195674010956 1.511833001277559 0.7552175310107443 2.706220516292722 1.1015923509271133 -3.115060651900751 0.6536916654898077 -0.7010335508702944 -0.8116714258196344 0.7187025630583597 2.658043788555498 -2.9066393938362283 0.6733977554468857 -3.8524941449413537 0.6559032714614501 1.1353301645717095 1.113628492451243 -0.23527069995768382 1.214179723760212 
-2.863750755258756 0.4224222924638642 -2.886411054141309 1.6172436093164688 0.661155243637987 -0.6803351957546876 3.5496890108694723 -1.0747401081093328 0.7077581670978212 -0.33401624349885933 -0.6478161820113268 1.1432227306545693 0.2881212731455035 -1.8193705394390165 -0.17563642680219257 -0.6203141334940195 -0.38327672777423205 -0.5413467152867307 -0.6422454603842678 -2.6247292380702207 0.366425055921875 1.7455804471183427 -0.8919567431450899 -2.222191591970653 -54.16743746977421 1.860911515868088 -0.08308490662977851 -1.7184984783860857 -0.48600894909351416 -14.228286774419804 0.38002307261014523 -0.25997174993749467 0.8556836170222435 -0.1409478318882608 -0.6809832749697121 
-1.6741182404077433 -0.4324225523566125 0.7847390024855272 0.9000139591041248 -2.4508258623138497 -2.186961397420983 -0.6965319680820885 2.6525690112385862 0.0911122939942129 -2.2541209891740808 2.288208991672364 1.244021652089451 -4.442163499515713 0.904811023846825 3.267370733080553 1.8523059162358155 2.8595747593769256 1.6934582122370292 0.5314657929048223 4.307536491952567 2.0967491748316935 2.467574475769555 0.8044139149060054 -1.0863954538860254 -0.3102558758697786 1.5629623759194644 4.449142423278129 -3.431724714867883 -0.876928931076318 -2.965378401022417 -0.6419282749464374 -3.3271003174273317 -2.3946355262662156 0.22838174353078639 -0.2096286050265169 
-2.4948168340007966 -0.09646545320258063 -0.8646782459874601 -1.4683124452892804 -1.93183575112249 1.064065889637752 -0.8238250336531426 0.44835463513527934 -0.08080754241534459 -1.0192019680658695 -0.6290817130024383 1.8708211418887453 -1.2148027176243825 -0.7934770023382987 0.27623541799437096 -0.8600045396989718 -0.7424063503775831 -1.32494145421344 0.10860768718472706 -0.3769948085202875 -0.6542621663882819 -2.7241759806166863 -0.5455659311008223 -1.2299522434174839 -1.128359256256948 0.8171409761942343 -1.7000522926902182 -1.808933481890349 0.6735595093001437 -1.4114016865517636 -0.7991372486025641 -6.580051892718892 -5.569868140333876 -0.8042556935931465 -0.9581248628418645 
-2.1255324511814324 -0.41986732707223623 1.0148665662133234 -0.099830545421718 -1.2443915713493532 1.3550856817332002 -8.784883530970477 -0.8025542097870827 0.6057134808823588 -1.2054723019447589 -0.8050873266907191 3.5908431048440823 25.697743795351347 1.2061747177244144 0.8235748371364748 0.8195855150823681 1.8581526674308182 1.4090330020690667 1.0044255012676524 2.469575411371256 0.8507914444113691 0.7584068423072472 0.24685081097436878 -11.726815493053365 1.0188494603575005 0.6066987557196478 1.2991272148229998 0.3978949573905024 0.3884995342970878 2.90723981153104 -0.09622934578675757 0.4620099540596759 1.5403221915686198 -0.3100187764286449 0.16966620216459333 
1.305579441083919 0.4406955649008384 1.5017650023645894 0.9120556201279605 0.5959473319382628 1.3299614001620301 3.1319144422523495 0.3803066335471956 0.13641509430527027 0.281933762701023 0.7007890935987081 1.1070211943603088 1.7198781241426568 0.09636303094956629 0.5536888552605269 0.26301669273836464 0.8410593447733962 0.8667848610693295 -0.25783588029197696 2.365095191306355 1.0463835977438143 0.9132784487697884 -0.524457402660399 4.186009815809392 -1.3203064020717363 0.3021882896562855 -0.6758400380930106 8.146429323143426 0.6890449025134573 -0.32399860574795575 0.009936873953816594 1.4682542750925553 2.204341398718341 -0.37448754626816616 0.15098458970578238 
-1.1484850872557621 -1.0119793291121302 2.802417029433424 -0.8302436641935802 0.6188313896603255 -0.2500350857494699 0.7506573008146914 -0.685859159103068 0.533724684690859 -2.5247831556022495 -0.6553711195328431 -1.9929514759832658 -1.1736600460968398 -1.4432268118622793 -1.7654741488177557 0.9968726945667995 -2.872813398714503 -0.7189970752107658 -0.08718552050852238 -1.2727405447366016 -0.1554662135399901 5.079426849562725 0.5835604539475794 -3.855669961202235 -2.125636175283235 -0.296334384685817 -1.126154035621722 -0.5436659288918656 -0.6499853879159365 -1.7742143410454654 -0.6997343596772361 -3.068921837745967 -2.2230104933685317 0.06153565496761434 -0.6815933260999344 
2.0719728539952658 1.0959333095745263 0.09566858581561673 -3.867836940698761 1.952319133597794 1.8143936064954027 -2.442004673469891 1.0166451958544664 0.5158873686062992 -0.44661770610346585 -0.19828404052757645 -1.7280042738156909 -1.6172902868553785 -0.08101424616096328 1.7507012114013618 0.759668417131657 -0.5185312551424442 1.1250911448762264 -0.29928647738481035 1.8091965457055 -0.9836917186156311 -2.0987363392012317 0.658535704604378 -1.7200363008364457 0.9743109271450656 -0.20208204018296444 -0.9188629058647428 1.0039315512784281 0.5357891157155873 -0.2376707397417118 0.4613020412125619 -5.636977725050546 -4.3164526690134215 -0.06822237037861036 -0.1463824103828423 
13.517266607083862 0.263570674721071 0.7117311060133086 -2.2138613984320266 1.1000520559861842 0.05768285439135429 1.4932926534048725 0.7138103301907794 0.23917648342283204 -0.2506365229270674 0.16981383995763172 4.4716905908771265 1.0856016598357132 -0.27129292752699663 0.1438978724835115 0.15211878920072192 -1.1728507235544479 -0.18073836109531585 -1.0380018006763203 -0.1265260927933188 0.8760383551029012 -1.57201126955483 0.5557297514956132 -2.2497947243102896 0.7258254650349942 0.7454721179614863 0.7583899911854081 1.5003960338912792 -0.33475511295082117 1.1916341798033188 -0.42569606759277234 0.1582472334962661 -0.22897899129141944 0.021652448572016026 0.767905052684121 
3.116938836255878 -0.7991564305094482 -3.0993473925692454 -0.9427076450517436 -2.701376890239249 0.3994270867196464 1.5193491748562273 -0.8500468705308798 0.9853529368160321 1.3593956231264686 0.5297094446219817 -5.589054062544087 -0.5150382911407456 -1.3253170920592268 3.3035263829915293 0.22671102321443168 0.8883681879322958 1.5640958246406997 -0.36648627209757295 2.3630492662670113 0.49958910590921474 -3.455335313574214 -0.3170106423682022 3.1958012936329365 0.5970979081721538 -0.7306715465153486 0.42626158059691754 -0.41334904428006036 -0.016626413174217047 -0.7415538664863965 -0.6920830849436248 3.365997641914474 -3.181214593555756 0.1311789859822496 0.35695894676485374 
-1.1936886541276108 0.6828028571234119 -0.7346039445764769 0.612578955863546 -2.0921177297409534 -0.7842498826462034 -1.0071820318981082 0.4076615624319575 1.1889304198067565 0.986381510309637 -0.6499046721789092 -1.0173527433417657 -0.6162304650823589 0.018854453645881137 -1.0350695486907862 -0.5226384232667087 -0.5356060683619303 -1.316719893663406 0.7550774563814076 -2.728552938710208 -1.0990068299782594 0.96634792995474 -0.5895278172389198 -1.3784368991761815 -0.6476110805705403 0.09759330929736691 -0.7769254381113633 -0.01101231782340246 -0.035067614458422845 -1.9288611936146909 0.9312129872342094 -0.7516309680066435 -0.6048100495575377 0.16574216424568047 -0.2095930895948432 
-2.8256928064860563 -0.015640734448621064 1.5915543905514735 0.1639907729440003 0.6912156889333866 1.0651634474030853 3.172063364400332 -0.579692799225555 1.425583489261253 1.0459630832297844 -0.7024310389494033 -1.572832955837595 0.11229380696966546 -0.9178691352492261 0.6308268338128479 -1.270377588349378 0.14463705426773574 -0.17905721219467846 -0.6532967797387765 -1.639152427268699 -0.4173726187665733 1.4210413800394923 -0.855448817955655 -3.322008389494776 -0.5545090622266703 0.9261988140854358 0.12191621462063067 3.363304198019488 0.15595474826598119 -0.08502293530324297 -0.48495118407397797 1.1330023176919048 1.5987997813689574 -0.8123377713156873 0.5490727654212945 
-3.8598720107934086 -0.8547882561165163 -2.4173205012373624 4.759740022430266 -0.4039325288868937 5.479317319663265 -7.145714210629981 1.4055554263980408 0.6483843165152646 -6.366513641882126 0.9498900580668366 -23.707763255028183 0.7928528296527364 -2.3493812490990016 1.512560554003801 0.559331167571021 -2.1435833752523172 -3.4378360100207965 -0.12011861992247157 -1.6377061996521265 -3.6286591191610635 -1.6814275752937466 0.02310119223496998 1.7725374287529805 0.5027798029416959 -1.0705727981113964 -2.681992305484575 3.5816637568104635 0.9978188899794055 3.4328775536803775 0.7639103106296203 0.009523956172334794 0.6201350665495066 -0.1993759648673332 -0.16142358037776672 
-2.8488522884652103 1.370927877551536 -3.8168123274356 1.0087870025025905 0.24396235092093785 0.09886225867927373 3.8852442144337096 0.5488400014646894 -1.7494638816307984 -1.1235757592727926 -0.590696639218659 0.9595799058161862 0.22988668118904396 0.4601233420444155 1.6698657417330482 2.515464926602878 0.5047859930268122 -0.8827280506271519 0.1389393666059997 1.084782388942331 2.1795464185921354 1.4322840222248912 0.4747714992805858 -2.811738891122998 8.024051685589809 1.1268001600290625 1.3089173949770763 -3.869807865829391 -0.48000547801839727 0.6783643118420599 0.2858297164487844 1.957266334880177 0.9213427273807681 0.7372463325779725 -0.2799527652918812 
-0.9690298332230137 -0.2530144954125117 2.0253108835472444 -1.3625324176643887 -2.9216299802534276 0.8767242259051723 -4.055408289238308 -1.0656698492609205 -0.4349643752573753 -4.88529329740855 2.171526904043884 -2.029159940237698 0.5286075109629749 -5.160333676540969 1.6672096211349205 3.496494848558796 -0.576095973264067 -7.494293580649287 
-2.3065958070776116 -3.3080853827830294 0.7130524119846091 -4.312171114314422 -0.256582181993162 0.9989692083054896 -2.285057716378309 1.1677036852506775 2.4348377546399753 0.28994064414942805 2.4679327590131988 -0.8521206180030986 1.949689000459247 1.2728860957144756 -1.367577239384423 -7.190949414430945 4.065829627906792 -2.0697068216847576 
2.3602255428686383 -1.490731328693564 2.8837925758615723 0.8139869503087968 2.5246995574984585 -1.2012624613875487 -0.36420405902417313 1.79270793016741 0.14693738326671416 -3.9914309281553826 4.191428586410978 -2.23325940617031 -4.207050311748042 -2.742688854307217 4.137349627489436 2.904167959973558 -2.091412735336353 -1.798880039551349 
2.9169092054277317 2.2945607649191824 1.9212767390061931 1.8577540715198253 1.788753009801616 -3.6674866876718255 -0.9913008201453263 -3.2979176735954647 3.530393057456738 2.4375737702416185 -2.676248994731485 -4.764773750635313 -2.4118272271208387 -3.6028818211480007 -0.1654132844248879 -0.6401969189555842 -0.6924286426726625 1.7858228377880059 
-2.977514939158909 -4.315086359934216 -4.21758959464813 3.6067685735147794 
